-1.045724
0.450820
-0.155994
1.396246
-1.157045
0.009367
-3.021094
-5.946022
5.627369
-3.383553
-10.226469
4.246100
0.179139
-0.092463
-5.377789
2.243534
14.398869
1.034508
-2.852678
-3.212741
-2.782166
-1.922542
2.708888
2.159806
1.724178
-1.065811
1.997218
-1.686962
-2.002583
-1.880747
-0.324774
-3.220088
2.843587
-3.594746
-12.376036
-4.718930
-1.798622
0.126556
-0.497890
0.026684
-0.623848
-4.425364
-5.517365
4.442573
-1.301941
4.094149
8.892673
-4.591155
5.716716
-0.019531
1.236551
5.687331
5.546371
9.926258
17.489273
0.259929
-7.669837
5.717541
19.528818
0.483929
-0.725547
-0.010118
2.194217
-0.993903
-1.017992
-6.898894
4.380339
-3.462286
-1.999552
-3.092134
-4.144053
-7.543339
0.129905
-0.634874
0.480804
0.058582
-1.000509
-0.069878
-4.306327
3.873160
-5.423411
-1.056955
6.763329
-5.211388
-2.239123
6.035481
0.269813
5.410905
3.292527
4.320844
-6.327947
1.677728
-2.664086
1.167034
0.862079
-6.490051
-0.131750
-0.328970
3.834240
-1.815054
-5.093638
-1.736940
5.357958
2.505366
3.298470
1.570643
-0.510135
4.222246
-0.008116
-0.005759
0.020850
-0.013243
-0.026956
-0.000017
-0.799884
-0.884857
1.457045
-4.244733
-7.632295
-1.340921
0.957091
-1.684973
-0.477061
-4.156208
-5.103572
0.409837
5.908802
-2.233253
0.786951
-0.843494
0.873635
6.598081
-0.375509
0.360454
0.936090
-2.070182
-3.436184
-4.372787
-1.144032
-3.536433
1.306652
1.502004
2.715322
1.020184