BF85DA45
3EE6D1DC
BE1FBCD8
3FB2B832
BF941A10
3C197610
C041599B
C0BE45CF
40B41368
C0588C22
C1239F9E
4087E00D
3E377054
BDBD5D50
C0AC16D8
400F9610
416661C4
3F846AC2
C0369246
C04D9D8E
C0320F04
BFF615DC
402D5E6D
400A3A42
3FDCB1DD
BF886C80
3FFFA4D3
BFD7EE5F
C0002A51
BFF0BC4E
BEA648C8
C04E15EA
4035FD55
C0661053
C146043E
C097017A
BFE63941
3E0197CB
BEFEEB7C
3CDA97F0
BF1FB47C
C08D9C95
C0B08E42
408E298F
BFA6A600
40830344
410E4863
C092EABE
40B6EF57
BC9FFF70
3F9E474F
40B5FE9D
40B17BDE
411ED1F4
418BEA08
3E851579
C0F56F4F
40B6F618
419C3B05
3EF7C584
BF39BD74
BC25C5E0
400C6E0F
BF7E7074
BF824D92
C0DCC3BE
408C2BBC
C05D961A
BFFFF14E
C045E587
C0849C16
C0F16309
3E0505DC
BF22871A
3EF62BF0
3D6FF3D0
BF8010AC
BD8F1C4A
C089CD6E
4077E1D9
C0AD8C95
BF874A4A
40D86D30
C0A6C3B1
C00F4DC9
40C122AA
3E8A24E2
40AD2623
4052B8C2
408A445A
C0CA7E8A
3FD6BFCC
C02A8061
3F956160
3F5CB131
C0CFAE7F
BE06E995
BEA86EC2
40756432
BFE853AD
C0A2FF15
BFDE540A
40AB7464
402057EB
40531A20
3FC90AD5
BF02982D
40871CA3
BC04F9EE
BBBCB9AA
3CAACDB4
BC58F7CE
BCDCD22B
B78F1871
BF4CC534
BF628600
3FBA8072
C087D4DA
C0F43BC2
BFABA350
3F7503EA
BFD7AD32
BEF4415E
C084FFA8
C0A35076
3ED1D632
40BD14E7
C00EED9D
3F4975A4
BF57EF38
3F5FA685
40D3237A
BEC042B5
3EB88D64
3F6FA396
C0047DDB
C05BEA6F
C08BEDDE
BF926FA2
C06254EA
3FA74060
3FC041AD
402DC7D4
3F829561