BEAFC505
3E970A3D
3ED26E98
BCAC0831
BEADE00D
BD95E9E2
3E374BC7
3E507C85
3EEB020C
BD271DE7
BED5F6FD
BDBD3C36
BCA8C155
BEB8E219
BE801A37
BEDD14E4
3E8EB1C4
3EB2BD3C
BE8147AE
BDF52546
3E9E353F
BEE38866
BE933333
3E5A9FBE
3E734D6A
3DD07C85
3DCBC6A8
3EC9E1B1
BEEF9DB2
3C2C0831
3EA7C84B
3EDFF2E5
3E657A78
3BDB8BAC
BE652BD4
BE3A0F91
BEAF3BF4
3E96CF26
3ED2830A
BCB77855
BEAD4865
BD95EECB
3E3A63BD
3E56933C
3EE82075
BD1941FD
BED0BA96
BDC5EE64
BCAA3904
BEB8D5FA
BE7AB2AD
BEDE3AF5
3E87527A
3EB235A4
BE7FA38C
BDEE90DF
3E9FA1E9
BEE28C68
BE949642
3E586990
3E71896E
3DD2AB50
3DC7AF8A
3ECABECE
BEEE9736
3C4AD89D
3EA7F2DD
3EE198F5
3E62910A
3C28AB4C
BE587F86
BE353A87
BEAE5034
3E96BE8F
3ED2C44C
BCB7B04B
BEACF6A0
BD8CDEA1
3E400A15
3E5206A4
3EE8CB1B
BD2A0704
BED5482B
BDBC874E
BCD90DD7
BEB8D36B
BE7BF6D5
BEE12468
3E847B81
3EAD2096
BE88C621
BDEF1926
3EA38F36
BEE579D1
BE9E95F0
3E57EAB4
3E7247A1
3DD2B09E
3DC33123
3ECB4114
BEEE11C8
3C9DF056
3EA5B4B9
3EE35EC4
3E649D36
3C5B54A6
BE54412F
BE2D8116
BEAE613B
3E9711C6
3ED28547
BCB82B26
BEAC737C
BD8CB9FE
3E4472F6
3E4E0F51
3EEB91F6
BD25B2B8
BED8BEA7
BDB1DB09
BCC6B60F
BEBBEA80
BE7C3D90
BEE3E9A0
3E82CBF2
3EAAEA3F
BE8588B6
BDF288C3
3EA4EC66
BEE612C8
BE9F06EF
3E5E9008
3E726A2B
3DD35D18
3DBB56E4
3ECC2EFB
BEEB7626
3CAC2AF6
3EA2F672
3EE21662
3E613C89
3C4198E5
BE53BB74
BE31D3EC