-0.343300
0.295000
0.411000
-0.021000
-0.339600
-0.073200
0.179000
0.203600
0.459000
-0.040800
-0.417900
-0.092400
-0.020600
-0.361100
-0.250200
-0.431800
0.278700
0.349100
-0.252500
-0.119700
0.309000
-0.444400
-0.287500
0.213500
0.237600
0.101800
0.099500
0.394300
-0.468000
0.010500
0.327700
0.437400
0.224100
0.006700
-0.223800
-0.181700
-0.342254
0.294549
0.411156
-0.022396
-0.338443
-0.073209
0.182021
0.209546
0.453373
-0.037416
-0.407674
-0.096646
-0.020779
-0.361008
-0.244822
-0.434044
0.264301
0.348065
-0.249647
-0.116487
0.311782
-0.442477
-0.290209
0.211340
0.235876
0.102866
0.097503
0.395987
-0.465997
0.012381
0.328025
0.440620
0.221256
0.010295
-0.211424
-0.176981
-0.340456
0.294423
0.411654
-0.022423
-0.337819
-0.068784
0.187538
0.205103
0.454675
-0.041511
-0.416566
-0.092055
-0.026496
-0.360988
-0.246059
-0.439731
0.258755
0.338139
-0.267137
-0.116747
0.319452
-0.448195
-0.309738
0.210856
0.236601
0.102876
0.095309
0.396981
-0.464979
0.019280
0.323644
0.444082
0.223256
0.013387
-0.207280
-0.169438
-0.340586
0.295057
0.411173
-0.022482
-0.336819
-0.068714
0.191845
0.201230
0.460098
-0.040454
-0.423330
-0.086844
-0.024257
-0.367023
-0.246329
-0.445142
0.255462
0.333818
-0.260809
-0.118425
0.322116
-0.449362
-0.310600
0.217346
0.236733
0.103205
0.091474
0.398796
-0.459886
0.021017
0.318286
0.441577
0.219957
0.011816
-0.206770
-0.173660