-0.419700
0.368700
0.240200
0.302400
-0.491500
0.465900
-0.412537
0.264688
0.132201
0.129953
-0.476938
0.506786
-0.400164
0.162421
0.202261
0.277586
-0.442606
0.566726
-0.408393
0.173936
0.262798
0.343493
-0.411764
0.688066
-0.411609
0.151825
0.193756
0.367971
-0.352042
0.657120
-0.422133
0.187489
0.106559
0.394536
-0.359214
0.578721
-0.392538
0.169996
-0.052130
0.378714
-0.328660
0.632728
-0.392092
0.158818
-0.039639
0.404313
-0.353605
0.686944
-0.444056
0.089427
-0.004228
0.380467
-0.426517
0.635444
-0.445865
0.086862
-0.041530
0.323628
-0.437676
0.607501