BED6E2EB
3EBCC63F
3E75F6FD
3E9AD42C
BEFBA5E3
3EEE8A72
BED3380D
3E878522
3E075FB4
3E05124F
BEF4312F
3F01BCC2
BECCE255
3E2651C8
3E4F1D8D
3E8E1FBC
BEE29D46
3F1114FA
BED118DB
3E321C5E
3E868D66
3EAFDE42
BED2D2C0
3F302518
BED2BE5F
3E1B7801
3E4667FF
3EBC66B3
BEB43EDA
3F283908
BED821C2
3E3FFD32
3DDA3B93
3ECA0098
BEB7EAEF
3F142712
BEC8FABA
3E2E138E
BD55860E
3EC1E6C9
BEA84626
3F21FA78
BEC8C058
3E22A13D
BD225CFF
3ECF020E
BEB50BC1
3F2FDB91
BEE35B48
3DB725B6
BB8A8AC0
3EC2CC8D
BEDA6067
3F22AC6E
BEE44879
3DB1E4C4
BD2A1AFC
3EA5B285
BEE01718
3F1B8536