BF375F68
41266B7A
412CCC63
4189F537
BFBA659D
C082D636
BF9E5EFE
4123A042
C0E03147
C16C3690
C05BB8DA
C0BFCEBA
3F52A61A
BF936454
C0C1B766
C0D2E6C9
C0456387
C14224BC
3EA4A765
400D8345
40DCEEC1
C01CA986
C0BF1C60
40460D96
3F86B4A5
C064406F
410B83F4
C02A03AC
3F379C0C
40FAE086
C03D67E5
3FDFE87E
417DE6E9
3FCA852E
C0438BCD
C0ACD27A
BD3671C0
3F8F14F1
BF9FE04E
C023D4DA
401FA615
C0AD7DB6
40A64859
40DE0CF2
C062A235
40189CCC
40E9510C
40A4CD38
3E394E9B
3E835796
406EBB10
40B5E2B4
3F8ED73D
4032D472
BF48F650
401B1070
C005F438
411A284A
40C8264A
C103F185