BF85DA45
3EE6D1DC
BE1FBCD8
3FB2B832
BF941A10
3C197610
C041599B
C0BE45CF
40B41368
C0588C22
C1239F9E
4087E00D
3E377054
BDBD5D50
C0AC16D8
400F9610
416661C4
3F846AC2
C0369246
C04D9D8E
C0320F04
BFF615DC
402D5E6D
400A3A42
3FDCB1DD
BF886C80
3FFFA4D3
BFD7EE5F
C0002A51
BFF0BC4E
BEA648C8
C04E15EA
4035FD55
C0661053
C146043E
C097017A
BF397DC4
BE083009
BF1B2400
BF105464
BEEDF4F0
C048BB24
C106C958
409B3CDD
C086FCA2
BDB5F4A8
4083680C
C0767BF0
40C87C7D
BF86DE22
3DA409F8
407C6C2C
400DCFB4
4132C5B0
41461AB6
3F9D8581
C09E9914
40723FA9
411AD474
4050B58B
BF577C78
BC81E600
4043DE28
BFC2E172
C0018088
C1051C8C
40BC6F63
C0F7AF37
3EA5FA89
C0AE8844
C126D5BC
C11FABC9
BD88AD53
BF5DD3DD
3F845420
BF03C438
BFD3AC9F
BE474720
3FDF6580
3EB87225
BEB8BF48
3FB9F3B7
40728968
BEBAB5FD
3D2F2938
40509EC2
C03AED0C
3FE51140
3F2D7614
402AA72E
3F90E56E
3F3B45B2
BF178A89
BD1244C0
BF12324B
C03E354D
BEBAD1AE
BF40A5DB
3FDE3501
BF85E148
C08B0B0B
C001945C
40306258
40092ECD
3F837C4B
400A3041
BF7EF2DD
3FA75AA8
BE3C429E
BE0597DC
3EF1D058
BE9995DE
BF1C5016
B9CA961D
BFB28CD8
3E579FF4
3F366E16
C0079599
BFFFC78E
BFE33DBD
C01B1CA9
BFD8465B
4001DDE2
BF3846E0
C02A1E74
40B16AE4
40C02F43
C006A8D0
BF857885
BE37C146
BF7F52C4
40A1D8F7
BFA393DA
3FBF7D39
BFB5D471
C037B6EE
C08585B6
C0F6078A
40377FC6
C0499A8E
3C3C4570
3F7B186D
3F8C3C10
3FE469B2
3F623653
BF52C3D1
3F0A824C
BF6FD603
BF792EBB
3F6888D3
403FDBD4
BF2C98DC
C0013BAF
40002616
4056C495
3ED39275
C040B655
BF543B66
BFDDA4D8
BE9CE9DF
401B24A5
BFD1C762
40625026
3FEAB8D5
BFB1A735
BE12E29F
40C6FC4C
C051FF69
BF6ADFEB
BF6A2B78
40187372
BDE48B2B
BF9D38BD
BE8079C8
BF6DFE43
C022D345
3D17ED30
3BE9E0B0
C011E434
4139F9FD
3F8F7ACA
40035A5B
C05ABCC9
401165C0
40ABEC02
3FF0242B
3FECBCD7
BD1AACD0
4075EC19
3FEA6E58
40782E2E
403A3254
C0C86A6D
C09A01AF
40BB4168
C0777F62
C127D50F
401BF5C2
BFE2C9FA
3F45AFA6
BF9EBEA0
BFA53095
3F4C2C6A
C0303EF4
3F429B2A
3E8713D2
3F1164CA
BD36D512
BE7F76EC
C084BEEE
BF7BAEBD
BE8EFB96
40DC56F4
C0812A99
C100F5C7
C0FE3C68
BE8989AE
3D6E8578
BEC2BF70
BDEA53DB
BF93C740
BE651F08
C02A8453
3F883F20
BFF6022E
3F53D784
BFA4DC6F
3F075CA7
3F2F9103
3ECD499C
BFEFA4E3
BFD66702
3F6EAF61
C030A606
3EE50678
3FA1BB4E
BF13B286
404AA986
402E2592
4061A2F9
BF4602E5
BEE770C1
3EC17908
3F19E43B
3F97E7F7
3FB78B3E
4066D598
BF3BBDF1
4072113F
3FE80C7C
BF91473E
40918A1E
BDB60544
C075FD47
40AA1257
C0A0959B
C1399536
40726796
BFF11AAE
C01F05E4
403FEBFE
C08B1539
C0A203E6
C03D4958
3F3F03CC
BFA8161D
4004204C
3F0B1290
C084BCD8
40C085C7
4053E6D4
C081FCC4
40902789
BFCBA07B
C0A04A53
40C9F8D8
C01EE66E
4036EB86
C07DA5B0
40AD54B0
41185B15
41090607
C079724E
4042B7B4
C0CFC909
3E5745C8
40F03BE1
3E2697B0
3D974239
BDC6E8A1
3E3556AA
BD4A337A
BDC13B29
3E5685FC
BE69A0DC
3E49F91A
BEF119BE
3DA5C666
3DEA703C
3D084C87
BDF90BE4
BFEC34B8
3F913F12
BF604403
BFA841CA
3F85FB6A
C0819F34
BEECF4E0
BF9D321B
3E87C389
BF32762F
BFA46147
BE8B59FC
3DAF6AB0
BDFB480B
3F624DFD
3FAF3FB8
3F5FBBA6
C0179BB3
3F033653
C0498BF1
3F0B3FA1
3F52A8E0
BF5EC090
BEB7EC37
3F4A6A6A
BF571F65
3EBBDE7A
3F549071
BE8C6C5C
BFA47410
BF69DDB0
402F54E7
3DCDE524
C0377EDF
3F26851E
3EF6201C
3FA83113
BE087DB8
3F5E9B95
3E99AD0B
3F6DF3E6
BF9248CF
BFE5D594
C03952C0
C0616A64
BF86D45B
3F98F661
BF29D5B6
3D86F736
BFD46CF1
403410E5
40ADB31F
40CE2382
4017F4D7
BFBDF3D4
402C5FC2
BEB2FC33
C08D056A
BFC37058