-1.045724
0.450820
-0.155994
1.396246
-1.157045
0.009367
-3.021094
-5.946022
5.627369
-3.383553
-10.226469
4.246100
0.179139
-0.092463
-5.377789
2.243534
14.398869
1.034508
-2.852678
-3.212741
-2.782166
-1.922542
2.708888
2.159806
1.724178
-1.065811
1.997218
-1.686962
-2.002583
-1.880747
-0.324774
-3.220088
2.843587
-3.594746
-12.376036
-4.718930
-0.724575
-0.132996
-0.606018
-0.563788
-0.464759
-3.136422
-8.424156
4.851180
-4.218339
-0.088846
4.106451
-3.851315
6.265196
-1.053654
0.080097
3.944102
2.215802
11.173264
12.381521
1.230637
-4.956186
3.785136
9.676868
3.261081
-0.841743
-0.015857
3.060434
-1.522505
-2.023470
-8.319469
5.888597
-7.740139
0.324177
-5.454134
-10.427181
-9.979440
-0.066737
-0.866514
1.033817
-0.514713
-1.653705
-0.194607
1.745285
0.360246
-0.360834
1.452750
3.789637
-0.364670
0.042764
3.259690
-2.920718
1.789589
0.677583
2.666454
1.132002
0.731532
-0.591958
-0.035710
-0.571080
-2.972003
-0.364881
-0.752531
1.735993
-1.045938
-4.345098
-2.024680
2.756002
2.143481
1.027231
2.159195
-0.995893
1.307454
-0.183848
-0.130462
0.472293
-0.299972
-0.610597
-0.000386
-1.394923
0.210571
0.712617
-2.118506
-1.998277
-1.775322
-2.423624
-1.689647
2.029168
-0.719831
-2.658109
5.544298
6.005769
-2.104053
-1.042740
-0.179448
-0.997357
5.057735
-1.277950
1.496009
-1.420546
-2.870540
-4.172572
-7.688420
2.867174
-3.150058
0.011491
0.980841
1.095583
1.784476
0.883641
-0.823300
0.541051
-0.936859
-0.973369
0.908338
2.997792
-0.674207
-2.019268
2.002325
3.355748
0.413227
-3.011129
-0.829031
-1.731593
-0.306472
2.424112
-1.638897
3.536142
1.833766
-1.387915
-0.143443
6.218298
-3.281214
-0.917479
-0.914726
2.382046
-0.111594
-1.228294
-0.250929
-0.929661
-2.544145
0.037091
0.007137
-2.279553
11.623532
1.120935
2.052390
-3.417773
2.271835
5.372560
1.876104
1.849513
-0.037762
3.842535
1.831492
3.877819
2.909322
-6.262991
-4.812706
5.851734
-3.867150
-10.489516
2.436875
-1.771789
0.772211
-1.240192
-1.290545
0.797553
-2.753842
0.760180
0.263823
0.567944
-0.044637
-0.249477
-4.148307
-0.983135
-0.279263
6.885614
-4.036450
-8.060004
-7.944874
-0.268629
0.058233
-0.380367
-0.114418
-1.154518
-0.223751
-2.664326
1.064426
-1.921942
0.827507
-1.287977
0.528758
0.685806
0.400952
-1.872219
-1.675019
0.932364
-2.760133
0.447315
1.263529
-0.576943
3.166597
2.721043
3.525572
-0.773482
-0.452032
0.377877
0.601139
1.186767
1.433937
3.606787
-0.733367
3.782303
1.812881
-1.134987
4.548110
-0.088877
-3.843584
5.314739
-5.018262
-11.598928
3.787572
-1.883627
-2.484735
2.998779
-4.346341
-5.062976
-2.957602
0.746152
-1.313175
2.064471
0.543252
-4.148052
6.016330
3.310964
-4.062105
4.504826
-1.590835
-5.009073
6.311626
-2.482814
2.858125
-3.963238
5.416588
9.522237
8.563972
-3.897602
3.042462
-6.493290
0.210227
7.507309
0.162688
0.073857
-0.097123
0.177088
-0.049365
-0.094351
0.209495
-0.228153
0.197239
-0.470900
0.080945
0.114472
0.033276
-0.121605
-1.845359
1.134737
-0.876038
-1.314508
1.046735
-4.050684
-0.462806
-1.228092
0.265164
-0.697116
-1.284219
-0.272171
0.085653
-0.122696
0.884003
1.369132
0.873957
-2.368878
0.512548
-3.149166
0.543940
0.822889
-0.870126
-0.359224
0.790686
-0.840323
0.366932
0.830329
-0.274264
-1.284792
-0.913539
2.739557
0.100535
-2.867119
0.650469
0.480714
1.313998
-0.133292
0.869561
0.300148
0.929503
-1.142847
-1.795580
-2.895676
-3.522119
-1.053356
1.195019
-0.663417
0.065901
-1.659575
2.813531
5.428115
6.441834
2.374319
-1.484004
2.693345
-0.349580
-4.406911
-1.526866