-0.716300
10.401239
10.799899
17.244734
-1.456226
-4.088649
-1.237274
10.226625
-7.006015
-14.763321
-3.433157
-5.993985
0.822847
-1.151499
-6.053638
-6.590672
-3.084200
-12.133968
0.321590
2.211137
6.904145
-2.447847
-5.972214
3.094579
1.052388
-3.566433
8.719715
-2.656474
0.717225
7.839908
-2.959466
1.749283
15.868875
1.582189
-3.055408
-5.400693
-0.044542
1.117827
-1.249033
-2.559866
2.494512
-5.421596
5.196332
6.939080
-3.541150
2.384570
7.291143
5.150051
0.180964
0.256528
3.730167
5.683924
1.115944
2.794217
-0.785008
2.422878
-2.093031
9.634836
6.254674
-8.246465