BEAFC505
3E970A3D
3ED26E98
BCAC0831
BEADE00D
BD95E9E2
3E374BC7
3E507C85
3EEB020C
BD271DE7
BED5F6FD
BDBD3C36
BCA8C155
BEB8E219
BE801A37
BEDD14E4
3E8EB1C4
3EB2BD3C
BE8147AE
BDF52546
3E9E353F
BEE38866
BE933333
3E5A9FBE
3E734D6A
3DD07C85
3DCBC6A8
3EC9E1B1
BEEF9DB2
3C2C0831
3EA7C84B
3EDFF2E5
3E657A78
3BDB8BAC
BE652BD4
BE3A0F91
BEAA6A5E
3E94BB57
3ED33B0F
BD0F34CC
BEA7F37D
BD961AFE
3E563B65
3E86AFD4
3ECE3224
BBE43638
BEA19AF4
BE0A1900
BCB76E28
BEB868E8
BE4922E1
BEE89189
3E09F1C3
3EAD7149
BE65593C
BDB35942
3EAC73E3
BED9B07C
BEA111CB
3E4481F1
3E61A596
3DE65070
3DA2DF7C
3ED284D4
BEE55CDF
3CF01636
3EA971FB
3EF06F87
3E485C2D
3D2EAF1C
BDCCE196
BE09BD2C
BEA6B4A7
3E9569A9
3ED65561
BCF03A1C
BEA59252
BD2BBE37
3E963F68
3E5BB294
3EE3CB34
BBC71950
BEB6A15C
BDC55205
BDAE2B36
BEB303DC
BE49F4D9
BEFCC326
3DE68257
3E687888
BEB21153
BDCC8D57
3EC5D40F
BEED11BD
BED29D75
3E231D37
3E6A442A
3DE6A393
3D4863FE
3EDA5068
BEDB00AB
3DE66788
3E8B4BAE
3F0C0857
3E450A5D
3DC70AEC
3B8AADF0
BD0E32AE
BEA65D2E
3E99D96B
3ED10A56
BCC60FCD
BE9D1AC7
BD23C59C
3E8D4FD4
3E580237
3EE5A428
BCA8C8B4
BECA0883
BDBDDA1A
BDAF0B6B
BEC3B466
BE2C0C5C
BF02F666
3DD8A1DB
3E4D2A95
BEB7DD10
BDDB88AD
3EC8DBF3
BEECE2EF
BECFB0EE
3E418C24
3E6E00AD
3DF60D01
3D0148CA
3EDFAB56
BEC4C176
3E07EF58
3E7A5EAA
3F068B96
3E3A858A
3D9AD285
3C6881C3
BD43C054
BEA56C35
3E9A846B
3ECE9F4B
BCAD7CF1
BE99FA75
BD23C18F
3E94742F
3E55DA37
3EE1FE1D
3A1872A0
BEBFCD54
BD997E4E
BD7AD14C
BEBB0DBF
BE40D3B3
BF011EA6
3E078900
3E14648A
BED69CF2
BDB07160
3ECE32B1
BEEBF7BA
BECA95AD
3E0DC198
3E7B16BE
3DD7699C
3D3B784A
3EEE5DCF
BEAF6463
3E56AA14
3E5D028A
3F0E9C02
3E3A676A
3D86BC16
3B5406BC
BD866BF4
BEA9F26A
3E9EBB89
3ECBDA21
BC417B28
BE94FEA4
BD48F62C
3E851AEB
3E5CC19C
3EEC54CF
BC9F4435
BED0FBC6
BDA1F4CE
BCFEF6A6
BEB6CF1E
BE2F186E
BF0055CD
3DDD6CAC
3E252CCF
BEE8B7D6
BDD5FF96
3ED54DDC
BEEB3BB7
BEEA6C20
3E2F5B1A
3E823DEE
3DEA2568
3CB3CD73
3EEEF014
BEA91A70
3E593BE0
3E668797
3F151F57
3E3A062E
3D8696AA
3CD53E8A
BE3A3C5E
BEAFAFA5
3E94396D
3EDD59DF
BD0D6CB6
BEB08090
BD8AE746
3E774573
3E5D249A
3ED8A852
BD1AA6B2
BEE4D682
BDDD8A08
3D010CE7
BE9E2B02
BE6B0466
BEECDEDA
3E5A1FF9
3E0C38B0
BEDFA584
BDE5D033
3EDBA768
BEE4A02C
BEEE817E
3E4B8E22
3E7CB318
3DE4BE37
3C8546CC
3EEF2A96
BEA7D371
3E81DB35
3E7098D2
3F15D65C
3DE707E9
3DD94149
3DDA6144
BDD1C2B7
BEAE4F8C
3E93ED19
3EDF4C6D
BD08BCF4
BEAA9750
BD86522C
3E8946E9
3E523E46
3EE27F73
BD3C8BBD
BEDE3E55
BDE85E3E
3CC9EB67
BEA0388B
BE57D87D
BEE44B5F
3E5093D6
3E287C36
BEE1EFD2
BDFFB0BA
3EDE9B9E
BEF4D6B2
BEFC7005
3E27740F
3E824F5D
3DEE002A
3C4CA44E
3EEC16A9
BEADE6F6
3E75076F
3E4BA9D8
3F17B6FB
3D9991C0
3DB42091
3DF19FDD
BE1773F4
BEADDB0E
3EA79AF6
3EC4164B
3C899EAE
BE5E68BB
BDD3E3F6
3E92EBD1
3E6BAFDB
3ED324E4
BB2850E0
BEC45230
BDABCBE4
3C8CCB78
BE997F57
BE6CFC60
BEE7136C
3E7B0DB5
3DD5C186
BEF2E391
BDAC7F99
3EC78B0D
BEECB18E
BEE2CA87
3DCDA505
3E8F05A3
3DB3775B
3D557EA2
3ED05B08
BEDEA7F2
3E1D557F
3E73932C
3F0FED13
3E0F46A6
3DAFD25F
3D2FBFE2
BE191E6E
BEAE3BDC
3EA81A43
3EC32E2E
3C8DA9F3
BE5D7165
BDD82E52
3E9416DC
3E69AACE
3ED58E1C
BB5D5D2A
BEC4E83A
BDAC7A5A
3C96C1B4
BE900C97
BE789B05
BEE2972E
3E8441CE
3DC0519E
BEDE2641
BDA3052A
3ECDD4BC
BEEE0D1C
BEDF38CE
3DE7F206
3E906A60
3DB1B64A
3D5A8532
3ECBD45A
BEE5AA7E
3E146278
3E85EA86
3F0E9D2C
3E2F8600
3DA4AE90
3D0E0B43
BE103572