-0.343300
0.295000
0.411000
-0.021000
-0.339600
-0.073200
0.179000
0.203600
0.459000
-0.040800
-0.417900
-0.092400
-0.020600
-0.361100
-0.250200
-0.431800
0.278700
0.349100
-0.252500
-0.119700
0.309000
-0.444400
-0.287500
0.213500
0.237600
0.101800
0.099500
0.394300
-0.468000
0.010500
0.327700
0.437400
0.224100
0.006700
-0.223800
-0.181700
-0.332843
0.290492
0.412560
-0.034962
-0.328030
-0.073294
0.209211
0.263060
0.402726
-0.006964
-0.315635
-0.134861
-0.022391
-0.360175
-0.196422
-0.454235
0.134711
0.338755
-0.223973
-0.087573
0.336822
-0.425175
-0.314589
0.191902
0.220358
0.112458
0.079528
0.411170
-0.447974
0.029307
0.330948
0.469601
0.195664
0.042647
-0.100040
-0.134511
-0.325597
0.291822
0.418620
-0.029325
-0.323382
-0.041929
0.293453
0.214548
0.444910
-0.006076
-0.356700
-0.096348
-0.085043
-0.349639
-0.197223
-0.493676
0.112553
0.227022
-0.347788
-0.099879
0.386384
-0.463026
-0.411358
0.159291
0.228776
0.112617
0.048923
0.426395
-0.427739
0.112502
0.272062
0.547002
0.192422
0.097189
0.004232
-0.034716
-0.324930
0.300487
0.408282
-0.024177
-0.306845
-0.039983
0.276000
0.210946
0.448518
-0.020604
-0.394596
-0.092701
-0.085471
-0.382236
-0.168016
-0.511572
0.105777
0.200358
-0.359108
-0.107194
0.392303
-0.462669
-0.405647
0.189011
0.232424
0.120142
0.031564
0.436854
-0.384288
0.132749
0.244502
0.525567
0.182150
0.075597
0.014191
-0.047791
-0.323091
0.301792
0.403559
-0.021178
-0.300739
-0.039980
0.289949
0.208840
0.441392
0.000582
-0.374613
-0.074948
-0.061235
-0.365339
-0.188308
-0.504374
0.132359
0.144915
-0.419166
-0.086154
0.402730
-0.460874
-0.395673
0.138434
0.245204
0.105182
0.045769
0.465559
-0.342563
0.209633
0.215830
0.557068
0.182035
0.065788
0.003235
-0.065636
-0.331928
0.310025
0.398149
-0.011809
-0.291005
-0.049063
0.259971
0.215582
0.461585
-0.019442
-0.408171
-0.079080
-0.031123
-0.357049
-0.170992
-0.501309
0.108117
0.161304
-0.454528
-0.104491
0.416610
-0.459440
-0.457856
0.171246
0.254379
0.114329
0.021949
0.466675
-0.330280
0.212142
0.225127
0.582509
0.181664
0.065717
0.026031
-0.181871
-0.343137
0.289501
0.432326
-0.034528
-0.344731
-0.067824
0.241476
0.215960
0.423159
-0.037757
-0.446949
-0.108173
0.031506
-0.308922
-0.229509
-0.462638
0.213013
0.136935
-0.436810
-0.112214
0.429012
-0.446535
-0.465832
0.198784
0.246777
0.111691
0.016269
0.467122
-0.327785
0.253626
0.234958
0.585302
0.112808
0.106082
0.106631
-0.102422
-0.340451
0.288918
0.436130
-0.033383
-0.333186
-0.065586
0.268119
0.205316
0.442379
-0.046032
-0.434069
-0.113461
0.024648
-0.312931
-0.210787
-0.445888
0.203689
0.164536
-0.441283
-0.124849
0.434781
-0.478200
-0.493042
0.163529
0.254512
0.116211
0.012490
0.461110
-0.339653
0.239286
0.198890
0.592636
0.074985
0.087953
0.117981
-0.147903
-0.339562
0.327354
0.382983
0.016799
-0.217196
-0.103462
0.286955
0.230163
0.412391
-0.002568
-0.383440
-0.083885
0.017187
-0.299800
-0.231431
-0.451320
0.245169
0.104373
-0.474392
-0.084228
0.389733
-0.462292
-0.442951
0.100412
0.279340
0.087630
0.052123
0.406945
-0.434875
0.153646
0.237866
0.562211
0.139918
0.085850
0.042908
-0.149530
-0.340300
0.328325
0.381212
0.017293
-0.216253
-0.105557
0.289237
0.228191
0.417100
-0.003378
-0.384584
-0.084218
0.018403
-0.281346
-0.242779
-0.442560
0.258315
0.093906
-0.433886
-0.079600
0.402014
-0.464944
-0.435980
0.113255
0.282062
0.086773
0.053350
0.398104
-0.448566
0.144907
0.261555
0.557086
0.171410
0.080411
0.034679
-0.140829